TRT-7201-EntropyCalibration2
Input: 3f9849a2
(Unnamed Layer* 216) [Constant]_output: 3bee39fe
(Unnamed Layer* 326) [Constant]_output: 3bf82712
(Unnamed Layer* 428) [Constant]_output: 3bdf75ff
convolution_output94: 3e50cf3b
(Unnamed Layer* 284) [Shuffle]_output: 3d810a14
(Unnamed Layer* 288) [Shuffle]_output: 3c077dc8
(Unnamed Layer* 293) [Shuffle]_output: 394e7687
(Unnamed Layer* 394) [Shuffle]_output: 3d810a14
(Unnamed Layer* 398) [Shuffle]_output: 3c0df17d
(Unnamed Layer* 403) [Shuffle]_output: 39ce7687
(Unnamed Layer* 492) [Shuffle]_output: 3d810a14
(Unnamed Layer* 495) [Shuffle]_output: 3c1ad8e6
(Unnamed Layer* 499) [Shuffle]_output: 3a4e7687
conv1_mish/LeakyRelu:0: 3e0309bc
convolution_output91: 3def2e5d
conv2_mish/LeakyRelu:0: 3d96e75c
convolution_output90: 3ddb5130
convolution_output92: 3ddf7330
conv2_1_mish/LeakyRelu:0: 3db0a6b8
conv2_2_mish/LeakyRelu:0: 3d98a2e9
convolution_output95: 3e0c052a
b1_conv1_1_mish/LeakyRelu:0: 3dbe5693
convolution_output93: 3dd6504c
b1_conv1_2_mish/LeakyRelu:0: 3d7745cb
b1_add1/add:0: 3de92b05
convolution_output89: 3d978999
b1_partial_trans_mish/LeakyRelu:0: 3db0a6b8
b1_concat/concat:0: 3db0a6b8
convolution_output86: 3dfaa95c
b1_final_trans_mish/LeakyRelu:0: 3db236f7
convolution_output78: 3ddcec3f
conv3_mish/LeakyRelu:0: 3d97187d
convolution_output62: 3d837f05
convolution_output84: 3d9a9483
conv3_1_mish/LeakyRelu:0: 3d95fa74
conv3_2_mish/LeakyRelu:0: 3d488af1
convolution_output88: 3d63facd
b2_conv1_1_mish/LeakyRelu:0: 3d30b773
convolution_output85: 3db7755f
b2_conv1_2_mish/LeakyRelu:0: 3d4d8ae7
b2_add1/add:0: 3d9361eb
convolution_output87: 3dcb83ab
b2_conv2_1_mish/LeakyRelu:0: 3d58756c
convolution_output82: 3df2a87f
b2_conv2_2_mish/LeakyRelu:0: 3da1f8cb
b2_add2/add:0: 3e04ac0b
convolution_output61: 3df8caad
b2_partial_trans_mish/LeakyRelu:0: 3d95fa74
b2_concat/concat:0: 3d95fa74
convolution_output41: 3e07672f
b2_final_trans_mish/LeakyRelu:0: 3d9b47d6
convolution_output32: 3df57e96
conv4_mish/LeakyRelu:0: 3d96123e
convolution_output29: 3dd3f6a7
convolution_output67: 3d8cff4c
conv4_1_mish/LeakyRelu:0: 3d58bdf8
conv4_2_mish/LeakyRelu:0: 3d54f5e2
convolution_output81: 3dace79d
b3_conv1_1_mish/LeakyRelu:0: 3d3cc518
convolution_output68: 3d586017
b3_conv1_2_mish/LeakyRelu:0: 3d4ef3fe
b3_add1/add:0: 3d81ad58
convolution_output77: 3d93f4f1
b3_conv2_1_mish/LeakyRelu:0: 3d2d4799
convolution_output59: 3d2cf82d
b3_conv2_2_mish/LeakyRelu:0: 3cfa4565
b3_add2/add:0: 3db02c03
convolution_output74: 3d899c32
b3_conv3_1_mish/LeakyRelu:0: 3d1382f2
convolution_output54: 3d809ea7
b3_conv3_2_mish/LeakyRelu:0: 3cf128e8
b3_add3/add:0: 3db88b09
convolution_output69: 3d797735
b3_conv4_1_mish/LeakyRelu:0: 3d104686
convolution_output49: 3d69e4d9
b3_conv4_2_mish/LeakyRelu:0: 3d013ade
b3_add4/add:0: 3dc388ff
convolution_output60: 3d764952
b3_conv5_1_mish/LeakyRelu:0: 3ceaffd2
convolution_output44: 3d7042af
b3_conv5_2_mish/LeakyRelu:0: 3d0c18c3
b3_add5/add:0: 3dc79b08
convolution_output55: 3d87870b
b3_conv6_1_mish/LeakyRelu:0: 3cf73568
convolution_output40: 3d8802f6
b3_conv6_2_mish/LeakyRelu:0: 3cf5ac0e
b3_add6/add:0: 3df9dc57
convolution_output50: 3d838212
b3_conv7_1_mish/LeakyRelu:0: 3cda6b02
convolution_output38: 3daf4d48
b3_conv7_2_mish/LeakyRelu:0: 3d39a331
b3_add7/add:0: 3e250901
convolution_output45: 3d8927cd
b3_conv8_1_mish/LeakyRelu:0: 3cf3c6a7
convolution_output34: 3db1de86
b3_conv8_2_mish/LeakyRelu:0: 3d145d2d
b3_add8/add:0: 3e234aac
convolution_output28: 3dcc0f34
b3_partial_trans_mish/LeakyRelu:0: 3d58bdf8
b3_concat/concat:0: 3d58bdf8
convolution_output22: 3d2725c5
b3_final_trans_bn/batchnorm/add_1:0: 3ddde9d3
b3_final_trans_mish/LeakyRelu:0: 3d3ac753
convolution_output31: 3df4c534
conv5_mish/LeakyRelu:0: 3d82db2b
convolution_output27: 3de55b6b
convolution_output64: 3da4ba77
conv5_1_mish/LeakyRelu:0: 3d7c1647
conv5_2_mish/LeakyRelu:0: 3d5ae1ef
convolution_output80: 3db619f6
b4_conv1_1_mish/LeakyRelu:0: 3d6b1e48
convolution_output65: 3d5657f6
b4_conv1_2_mish/LeakyRelu:0: 3cda7ffb
b4_add1/add:0: 3d801039
convolution_output76: 3d8a0665
b4_conv2_1_mish/LeakyRelu:0: 3d36cdd1
convolution_output57: 3d476366
b4_conv2_2_mish/LeakyRelu:0: 3cd01c45
b4_add2/add:0: 3d8af1c8
convolution_output73: 3d945bc9
b4_conv3_1_mish/LeakyRelu:0: 3d298da0
convolution_output52: 3d80d290
b4_conv3_2_mish/LeakyRelu:0: 3d078376
b4_add3/add:0: 3d93c6da
convolution_output66: 3d88dfb8
b4_conv4_1_mish/LeakyRelu:0: 3cf6746e
convolution_output47: 3d2f302a
b4_conv4_2_mish/LeakyRelu:0: 3cebc2c5
b4_add4/add:0: 3da35985
convolution_output58: 3d78874b
b4_conv5_1_mish/LeakyRelu:0: 3d0ed523
convolution_output42: 3d8fa417
b4_conv5_2_mish/LeakyRelu:0: 3d092f60
b4_add5/add:0: 3dc8dcbc
convolution_output53: 3d8101db
b4_conv6_1_mish/LeakyRelu:0: 3d0526cf
convolution_output39: 3d94e67c
b4_conv6_2_mish/LeakyRelu:0: 3d2eb9c4
b4_add6/add:0: 3dd0a7fa
convolution_output48: 3db23a00
b4_conv7_1_mish/LeakyRelu:0: 3cec6419
convolution_output37: 3d887e6d
b4_conv7_2_mish/LeakyRelu:0: 3d0f3d2d
b4_add7/add:0: 3df31726
convolution_output43: 3d7937b9
b4_conv8_1_mish/LeakyRelu:0: 3ce5805b
convolution_output33: 3d9521a8
b4_conv8_2_mish/LeakyRelu:0: 3d213e19
b4_add8/add:0: 3e0bd8bf
convolution_output26: 3dc83ab7
b4_partial_trans_mish/LeakyRelu:0: 3d7c1647
b4_concat/concat:0: 3d7c1647
convolution_output21: 3d29cd1a
b4_final_trans_bn/batchnorm/add_1:0: 3dbb2713
b4_final_trans_mish/LeakyRelu:0: 3d3f40dd
convolution_output46: 3dddd868
conv6_mish/LeakyRelu:0: 3d7ec14c
convolution_output36: 3de558cf
convolution_output70: 3db319d6
conv6_1_mish/LeakyRelu:0: 3d6f4060
conv6_2_mish/LeakyRelu:0: 3d384b5a
convolution_output83: 3cb6fa59
b5_conv1_1_mish/LeakyRelu:0: 3cb6fa59
convolution_output71: 3d84483e
b5_conv1_2_mish/LeakyRelu:0: 3d38a5dd
b5_add1/add:0: 3d751a0a
convolution_output79: 3d802a44
b5_conv2_1_mish/LeakyRelu:0: 3cfd04d6
convolution_output63: 3d874ac5
b5_conv2_2_mish/LeakyRelu:0: 3ca359f4
b5_add2/add:0: 3d9bbd02
convolution_output75: 3da4536f
b5_conv3_1_mish/LeakyRelu:0: 3d15e747
convolution_output56: 3dbdedbb
b5_conv3_2_mish/LeakyRelu:0: 3d0e63ed
b5_add3/add:0: 3dd23eab
convolution_output72: 3dd8a925
b5_conv4_1_mish/LeakyRelu:0: 3d021c93
convolution_output51: 3debf1f5
b5_conv4_2_mish/LeakyRelu:0: 3d38364d
b5_add4/add:0: 3e01f86e
convolution_output35: 3e0bbab5
b5_partial_trans_mish/LeakyRelu:0: 3d6f4060
b5_concat/concat:0: 3d6f4060
convolution_output30: 3e95b4eb
b5_final_trans_mish/LeakyRelu:0: 3e63d68e
b5_final_trans_mish/LeakyRelu:0_pooling0: 3e63d68e
b5_final_trans_mish/LeakyRelu:0_pooling01: 3e63d68e
b5_final_trans_mish/LeakyRelu:0_pooling02: 3e63d68e
yolo_spp_concat/concat:0: 3e63d68e
convolution_output23: 3da81a05
yolo_spp_conv_lrelu/LeakyRelu:0: 3d834750
convolution_output18: 3da4ce36
yolo_conv1_1_lrelu/LeakyRelu:0: 3d6fcc7c
convolution_output15: 3d9a62c7
yolo_conv1_2_lrelu/LeakyRelu:0: 3d678a78
convolution_output12: 3d9a0a4f
yolo_conv1_3_lrelu/LeakyRelu:0: 3d5fdca3
convolution_output9: 3d8f00c8
yolo_conv1_4_lrelu/LeakyRelu:0: 3d45c661
convolution_output6: 3d9b6edd
yolo_conv1_5_lrelu/LeakyRelu:0: 3d3ffb5f
convolution_output3: 3d8cadd8
convolution_output24: 3d6a6358
yolo_conv1_6_lrelu/LeakyRelu:0: 3d6156a8
yolo_conv2_lrelu/LeakyRelu:0: 3d0dc41e
convolution_output: 3e3ecd85
upsample0/transpose_1:0: 3d29cd1a
bg_permute/transpose:0: 3e3ecd85
concatenate_3/concat:0: 3d29cd1a
bg_reshape/Reshape:0: 3e3ecd85
convolution_output19: 3da6b691
yolo_conv3_1_lrelu/LeakyRelu:0: 3d473d31
convolution_output16: 3d8a38ea
yolo_conv3_2_lrelu/LeakyRelu:0: 3d37c94a
convolution_output13: 3d9cc8a9
bg_anchor/FirstDimTile/Tile:0: 3bee39fe
yolo_conv3_3_lrelu/LeakyRelu:0: 3d44c4c7
bg_anchor/Reshape:0: 3dfbd911
bg_bbox_processor/Reshape:0: 3e3ecd85
convolution_output10: 3d8b1a1e
yolo_conv3_4_lrelu/LeakyRelu:0: 3d3d522b
convolution_output7: 3d85f0f2
yolo_conv3_5_lrelu/LeakyRelu:0: 3d43b5b7
convolution_output4: 3d8abae6
convolution_output25: 3d47ed83
yolo_conv3_6_lrelu/LeakyRelu:0: 3d3aead3
yolo_conv4_lrelu/LeakyRelu:0: 3d164f1d
convolution_output1: 3e247530
upsample1/transpose_1:0: 3d2725c5
bg_bbox_processor/Reshape:0_cropping0: 3e546dda
bg_bbox_processor/Reshape:0_cropping01: 3c7aa95f
bg_bbox_processor/Reshape:0_cropping02: 3d056fae
md_permute/transpose:0: 3e247530
concatenate_4/concat:0: 3d2725c5
bg_bbox_processor/add:0: 3da1194a
bg_bbox_processor/Sigmoid:0: 3c07dcec
md_reshape/Reshape:0: 3e247530
convolution_output20: 3d90ebcb
bg_bbox_processor/sub_1:0: 3d810a14
bg_bbox_processor/mul:0: 3c0ea7f7
yolo_conv5_1_lrelu/LeakyRelu:0: 3d306b20
bg_bbox_processor/Minimum_min0: 3c7aa95f
bg_bbox_processor/sub:0: 3e546dda
convolution_output17: 3d7aca59
bg_bbox_processor/Exp:0: 3e546dda
yolo_conv5_2_lrelu/LeakyRelu:0: 3d1be0ed
bg_bbox_processor/concat:0: 3e546dda
convolution_output14: 3d8e6a7a
bg_bbox_processor/Reshape_1:0: 3dfbd911
md_anchor/FirstDimTile/Tile:0: 3bf82712
yolo_conv5_3_lrelu/LeakyRelu:0: 3d1eccd0
encoded_bg/concat:0: 3e36e38f
md_anchor/Reshape:0: 3e1bc524
md_bbox_processor/Reshape:0: 3e247530
convolution_output11: 3d8a14ca
yolo_conv5_4_lrelu/LeakyRelu:0: 3d30f36a
convolution_output8: 3d787acc
yolo_conv5_5_lrelu/LeakyRelu:0: 3d0a67a1
convolution_output5: 3d857da2
yolo_conv5_6_lrelu/LeakyRelu:0: 3d19bcf5
convolution_output2: 3e43a7d0
md_bbox_processor/Reshape:0_cropping0: 3e3d4df6
md_bbox_processor/Reshape:0_cropping01: 3c57bacb
md_bbox_processor/Reshape:0_cropping02: 3ccc6218
sm_permute/transpose:0: 3e43a7d0
md_bbox_processor/add:0: 3d992ab9
md_bbox_processor/Sigmoid:0: 3bf928db
sm_reshape/Reshape:0: 3e43a7d0
md_bbox_processor/sub_1:0: 3d810a14
md_bbox_processor/mul:0: 3c0909ab
md_bbox_processor/Minimum_min0: 3c57bacb
md_bbox_processor/sub:0: 3e3d4df6
md_bbox_processor/Exp:0: 3e3d4df6
md_bbox_processor/concat:0: 3e3d4df6
md_bbox_processor/Reshape_1:0: 3e1bc524
sm_anchor/FirstDimTile/Tile:0: 3bdf75ff
encoded_md/concat:0: 3e36e38f
sm_anchor/Reshape:0: 3e699438
sm_bbox_processor/Reshape:0: 3e43a7d0
sm_bbox_processor/Reshape:0_cropping0: 3e5c0397
sm_bbox_processor/Reshape:0_cropping01: 3ce64894
sm_bbox_processor/Reshape:0_cropping02: 3ca33139
sm_bbox_processor/add:0: 3db222e2
sm_bbox_processor/Sigmoid:0: 3bee3d2a
sm_bbox_processor/sub_1:0: 3d810a14
sm_bbox_processor/mul:0: 3c0ef180
sm_bbox_processor/Minimum_min0: 3ce64894
sm_bbox_processor/sub:0: 3e5c0397
sm_bbox_processor/Exp:0: 3e5c0397
sm_bbox_processor/concat:0: 3e5c0397
sm_bbox_processor/Reshape_1:0: 3e699438
encoded_sm/concat:0: 3e36e38f
encoded_detections/concat:0: 3e36e38f
box/Reshape:0: 3e36e38f
cls/Reshape:0: 3e36e38f
box/Reshape:0_cropping0: 3bfd1d9d
box/Reshape:0_cropping01: 3bfd1d9d
box/Reshape:0_cropping02: 3c017af8
box/Reshape:0_cropping03: 3a1ed155
box/Reshape:0_cropping04: 3a2f7e59
box/Reshape:0_cropping05: 3d4371b2
box/Reshape:0_cropping06: 3c019f97
box/Reshape:0_cropping07: 3a1ed155
box/Reshape:0_cropping08: 3a5c35ed
box/Reshape:0_cropping09: 3de2520f
cls/Reshape:0_cropping0: 3e474409
cls/Reshape:0_cropping01: 3e39a7dd
box/mul_1:0: 3a1bddec
box/mul_3:0: 3aa5ea2c
box/mul:0: 3a181ff7
box/mul_2:0: 3ad72021
cls/Sigmoid:0: 3c010a14
cls/Sigmoid_1:0: 3c0020d2
box/add_1:0: 3c00c28d
(Unnamed Layer* 732) [Shuffle]_output: 3b810a14
box/mul_4:0: 3a25ea2c
box/add:0: 3c00a7dc
(Unnamed Layer* 736) [Shuffle]_output: 3b810a14
box/mul_6:0: 3a572021
cls: 3c0020d2
box/sub:0: 3c019713
box/sub_1:0: 3c019713
box/add_2:0: 3c019713
box/add_3:0: 3c019713
box: 3c019713
BatchedNMS: 3fb37a75
BatchedNMS_1: 3c010a14
BatchedNMS_2: 3c002022
BatchedNMS_3: 3c010a14
